111000000000000
111000000000000
111000000000000
111000000000000
111000000000000
111000000000000
111000000000000
111000000000000
111000000000000
111000000000000
111000000000000
111000000000000
111000000000000
111000000000000
111000000000000
111000000000000
111000000000000
111000000000000
111000000000000
111000000000000
111000000000000
111000000000000
111000000000000
111000000000000
111000000000000
111000000000000
111000000000000
111000000000000
111000000000000
111000000000000
111000000000000
111000000000000
111000000000000
111000000000000
111000000000000
111000000000000
111000000000000
111000000000000
111000000000000
111000000000000
111000000000000
111000000000000
111000000000000
111000000000000
111000000000000
111000000000000
111000000000000
111000000000000
111000000000000
111000000000000
111000000000000
111000000000000
111000000000000
111000000000000
111000000000000
111000000000000
111000000000000
111000000000000
111000000000000
111000000000000
111000000000000
111000000000000
111000000000000
111000000000000
111000000000000
111000000000000
111000000000000
111000000000000
111000000000000
111000000000000
111000000000000
111000000000000
111000000000000
111000000000000
111000000000000
111000000000000
111000000000000
111000000000000
111000000000000
111000000000000
111000000000000
111000000000000
111000000000000
111000000000000
111000000000000
111000000000000
111000000000000
111000000000000
111000000000000
111000000000000
111000000000000
111000000000000
111000000000000
111000000000000
111000000000000
111000000000000
111000000000000
111000000000000
111000000000000
111000000000000
111000000000000
111000000000000
111000000000000
111000000000000
111000000000000
111000000000000
111000000000000
111000000000000
111000000000000
111000000000000
111000000000000
111000000000000
111000000000000
111000000000000
111000000000000
111000000000000
111000000000000
111000000000000
111000000000000
111000000000000
111000000000000
111000000000000
111000000000000
111000000000000
111000000000000
111000000000000
111000000000000
111000000000000
111000000000000
111000000000000
111000000000000
111000000000000
111000000000000
111000000000000
111000000000000
111000000000000
111000000000000
111000000000000
111000000000000
111000000000000
111000000000000
111000000000000
111000000000000
111000000000000
111000000000000
111000000000000
111000000000000
111000000000000
111000000000000
111000000000000
111000000000000
111000000000000
111000000000000
111000000000000
111000000000000
111000000000000
111000000000000
111000000000000
111000000000000
111000000000000
111000000000000
111000000000000
111000000000000
111000000000000
111000000000000
111000000000000
111000000000000
111000000000000
111000000000000
111000000000000
111000000000000
111000000000000
111000000000000
111000000000000
111000000000000
111000000000000
111000000000000
111000000000000
111000000000000
111000000000000
111000000000000
111000000000000
111000000000000
111000000000000
111000000000000
111000000000000
111000000000000
111000000000000
111000000000000
111000000000000
111000000000000
111000000000000
111000000000000
111000000000000
111000000000000
111000000000000
111000000000000
111000000000000
111000000000000
111000000000000
111000000000000
111000000000000
111000000000000
111000000000000
111000000000000
111000000000000
111000000000000
111000000000000
111000000000000
111000000000000
111000000000000
111000000000000
111000000000000
111000000000000
111000000000000
111000000000000
111000000000000
111000000000000
111000000000000
111000000000000
111000000000000
111000000000000
111000000000000
111000000000000
111000000000000
111000000000000
111000000000000
111000000000000
111000000000000
111000000000000
111000000000000
111000000000000
111000000000000
111000000000000
111000000000000
111000000000000
111000000000000
111000000000000
111000000000000
111000000000000
111000000000000
111000000000000
111000000000000
111000000000000
111000000000000
111000000000000
111000000000000
111000000000000
111000000000000
111000000000000
111000000000000
111000000000000
111000000000000
111000000000000
111000000000000
111000000000000
111000000000000
111000000000000
111000000000000
111000000000000
111000000000000
111000000000000
111000000000000
111000000000000
111000000000000
111000000000000
111000000000000
111000000000000
111000000000000
111000000000000
111000000000000
111000000000000
111000000000000
111000000000000
111000000000000
111000000000000
111000000000000
111000000000000
111000000000000
111000000000000
111000000000000
111000000000000
111000000000000
111000000000000
111000000000000
111000000000000
111000000000000
111000000000000
111000000000000
111000000000000
111000000000000
111000000000000
111000000000000
111000000000000
111000000000000
111000000000000
111000000000000
111000000000000
111000000000000
111000000000000
111000000000000
111000000000000
111000000000000
111000000000000
111000000000000
111000000000000
111000000000000
111000000000000
111000000000000
111000000000000
111000000000000
111000000000000
111000000000000
111000000000000
111000000000000
111000000000000
111000000000000
111000000000000
111000000000000
111000000000000
111000000000000
111000000000000
111000000000000
111000000000000
111000000000000
111000000000000
111000000000000
111000000000000
111000000000000
111000000000000
111000000000000
111000000000000
111000000000000
111000000000000
111000000000000
111000000000000
111000000000000
111000000000000
111000000000000
111000000000000
111000000000000
111000000000000
111000000000000
111000000000000
111000000000000
111000000000000
111000000000000
111000000000000
111000000000000
111000000000000
111000000000000
111000000000000
111000000000000
111000000000000
111000000000000
111000000000000
111000000000000
111000000000000
111000000000000
111000000000000
111000000000000
111000000000000
111000000000000
111000000000000
111000000000000
111000000000000
111000000000000
111000000000000
111000000000000
111000000000000
111000000000000
111000000000000
111000000000000
111000000000000
111000000000000
111000000000000
111000000000000
111000000000000
111000000000000
111000000000000
111000000000000
111000000000000
111000000000000
111000000000000
111000000000000
111000000000000
111000000000000
111000000000000
111000000000000
111000000000000
111000000000000
111000000000000
111000000000000
111000000000000
111000000000000
111000000000000
111000000000000
111000000000000
111000000000000
111000000000000
111000000000000
111000000000000
111000000000000
111000000000000
111000000000000
111000000000000
111000000000000
111000000000000
111000000000000
111000000000000
111000000000000
111000000000000
111000000000000
111000000000000
111000000000000
111000000000000
111000000000000
111000000000000
111000000000000
111000000000000
111000000000000
111000000000000
111000000000000
111000000000000
111000000000000
111000000000000
111000000000000
111000000000000
111000000000000
111000000000000
111000000000000
111000000000000
111000000000000
111000000000000
111000000000000
111000000000000
111000000000000
111000000000000
111000000000000
111000000000000
111000000000000
111000000000000
111000000000000
111000000000000
111000000000000
111000000000000
111000000000000
111000000000000
111000000000000
111000000000000
111000000000000
111000000000000
111000000000000
111000000000000
111000000000000
111000000000000
111000000000000
111000000000000
111000000000000
111000000000000
111000000000000
111000000000000
111000000000000
111000000000000
111000000000000
111000000000000
111000000000000
111000000000000
111000000000000
111000000000000
111000000000000
111000000000000
111000000000000
111000000000000
111000000000000
111000000000000
111000000000000
111000000000000
111000000000000
111000000000000
111000000000000
111000000000000
111000000000000
111000000000000
111000000000000
111000000000000
111000000000000
111000000000000
111000000000000
111000000000000
111000000000000
111000000000000
111000000000000
111000000000000
111000000000000
111000000000000
111000000000000
111000000000000
111000000000000
111000000000000
111000000000000
111000000000000
111000000000000
111000000000000
111000000000000
111000000000000
111000000000000
111000000000000
111000000000000
111000000000000
111000000000000
111000000000000
111000000000000
111000000000000
111000000000000
111000000000000
111000000000000
111000000000000
111000000000000
111000000000000
111000000000000
111000000000000
111000000000000
111000000000000
111000000000000
111000000000000
111000000000000
111000000000000
111000000000000
111000000000000
111000000000000
111000000000000
111000000000000
111000000000000
111000000000000
111000000000000
111000000000000
111000000000000
111000000000000
111000000000000
111000000000000
111000000000000
111000000000000
111000000000000
111000000000000
111000000000000
111000000000000
111000000000000
111000000000000
111000000000000
111000000000000
111000000000000
111000000000000
111000000000000
111000000000000
111000000000000
111000000000000
111000000000000
111000000000000
111000000000000
111000000000000
111000000000000
111000000000000
111000000000000
111000000000000
111000000000000
111000000000000
111000000000000
111000000000000
111000000000000
111000000000000
111000000000000
111000000000000
111000000000000
111000000000000
111000000000000
111000000000000
111000000000000
111000000000000
111000000000000
111000000000000
111000000000000
111000000000000
111000000000000
111000000000000
111000000000000
111000000000000
111000000000000
111000000000000
111000000000000
111000000000000
111000000000000
111000000000000
111000000000000
111000000000000
111000000000000
111000000000000
111000000000000
111000000000000
111000000000000
111000000000000
111000000000000
111000000000000
111000000000000
111000000000000
111000000000000
111000000000000
111000000000000
111000000000000
111000000000000
111000000000000
111000000000000
111000000000000
111000000000000
111000000000000
111000000000000
111000000000000
111000000000000
111000000000000
111000000000000
111000000000000
111000000000000
111000000000000
111000000000000
111000000000000
111000000000000
111000000000000
111000000000000
111000000000000
111000000000000
111000000000000
111000000000000
111000000000000
111000000000000
111000000000000
111000000000000
111000000000000
111000000000000
111000000000000
111000000000000
111000000000000
111000000000000
111000000000000
111000000000000
111000000000000
111000000000000
111000000000000
111000000000000
111000000000000
111000000000000
111000000000000
111000000000000
111000000000000
111000000000000
111000000000000
111000000000000
111000000000000
111000000000000
111000000000000
111000000000000
111000000000000
111000000000000
111000000000000
111000000000000
111000000000000
111000000000000
111000000000000
111000000000000
111000000000000
111000000000000
111000000000000
111000000000000
111000000000000
111000000000000
111000000000000
111000000000000
111000000000000
111000000000000
111000000000000
111000000000000
111000000000000
111000000000000
111000000000000
111000000000000
111000000000000
111000000000000
111000000000000
111000000000000
111000000000000
111000000000000
111000000000000
111000000000000
111000000000000
111000000000000
111000000000000
111000000000000
111000000000000
111000000000000
111000000000000
111000000000000
111000000000000
111000000000000
111000000000000
111000000000000
111000000000000
111000000000000
111000000000000
111000000000000
111000000000000
111000000000000
111000000000000
111000000000000
111000000000000
111000000000000
111000000000000
111000000000000
111000000000000
111000000000000
111000000000000
111000000000000
111000000000000
111000000000000
111000000000000
111000000000000
111000000000000
111000000000000
111000000000000
111000000000000
111000000000000
111000000000000
111000000000000
111000000000000
111000000000000
111000000000000
111000000000000
111000000000000
111000000000000
111000000000000
111000000000000
111000000000000
111000000000000
111000000000000
111000000000000
111000000000000
111000000000000
111000000000000
111000000000000
111000000000000
111000000000000
111000000000000
111000000000000
111000000000000
111000000000000
111000000000000
111000000000000
111000000000000
111000000000000
111000000000000
111000000000000
111000000000000
111000000000000
111000000000000
111000000000000
111000000000000
111000000000000
111000000000000
111000000000000
111000000000000
111000000000000
111000000000000
111000000000000
111000000000000
111000000000000
111000000000000
111000000000000
111000000000000
111000000000000
111000000000000
111000000000000
111000000000000
111000000000000
111000000000000
111000000000000
111000000000000
111000000000000
111000000000000
111000000000000
111000000000000
111000000000000
111000000000000
111000000000000
111000000000000
111000000000000
111000000000000
111000000000000
111000000000000
111000000000000
111000000000000
111000000000000
111000000000000
111000000000000
111000000000000
111000000000000
111000000000000
111000000000000
111000000000000
111000000000000
111000000000000
111000000000000
111000000000000
111000000000000
111000000000000
111000000000000
111000000000000
111000000000000
111000000000000
111000000000000
111000000000000
111000000000000
111000000000000
111000000000000
111000000000000
111000000000000
111000000000000
111000000000000
111000000000000
111000000000000
111000000000000
111000000000000
111000000000000
111000000000000
111000000000000
111000000000000
111000000000000
111000000000000
111000000000000
111000000000000
111000000000000
111000000000000
111000000000000
111000000000000
111000000000000
111000000000000
111000000000000
111000000000000
111000000000000
111000000000000
111000000000000
111000000000000
111000000000000
111000000000000
111000000000000
111000000000000
111000000000000
111000000000000
111000000000000
111000000000000
111000000000000
111000000000000
111000000000000
111000000000000
111000000000000
111000000000000
111000000000000
111000000000000
111000000000000
111000000000000
111000000000000
111000000000000
111000000000000
111000000000000
111000000000000
111000000000000
111000000000000
111000000000000
111000000000000
111000000000000
111000000000000
111000000000000
111000000000000
111000000000000
111000000000000
111000000000000
111000000000000
111000000000000
111000000000000
111000000000000
111000000000000
111000000000000
111000000000000
111000000000000
111000000000000
111000000000000
111000000000000
111000000000000
111000000000000
111000000000000
111000000000000
111000000000000
111000000000000
111000000000000
111000000000000
111000000000000
111000000000000
111000000000000
111000000000000
111000000000000
111000000000000
111000000000000
111000000000000
111000000000000
111000000000000
111000000000000
111000000000000
111000000000000
111000000000000
111000000000000
111000000000000
111000000000000
111000000000000
111000000000000
111000000000000
111000000000000
111000000000000
111000000000000
111000000000000
111000000000000
111000000000000
111000000000000
111000000000000
111000000000000
111000000000000
111000000000000
111000000000000
111000000000000
111000000000000
111000000000000
111000000000000
111000000000000
111000000000000
111000000000000
111000000000000
111000000000000
111000000000000
111000000000000
111000000000000
111000000000000
111000000000000
111000000000000
111000000000000
111000000000000
111000000000000
111000000000000
111000000000000
111000000000000
111000000000000
111000000000000
111000000000000
111000000000000
111000000000000
111000000000000
111000000000000
111000000000000
111000000000000
111000000000000
111000000000000
111000000000000
111000000000000
111000000000000
111000000000000
111000000000000
111000000000000
111000000000000
111000000000000
111000000000000
111000000000000
111000000000000
111000000000000
111000000000000
111000000000000
111000000000000
111000000000000
111000000000000
111000000000000
111000000000000
111000000000000
111000000000000
111000000000000
111000000000000
111000000000000
111000000000000
111000000000000
111000000000000
111000000000000
111000000000000
111000000000000
111000000000000
111000000000000
111000000000000
111000000000000
111000000000000
111000000000000
111000000000000
111000000000000
111000000000000
111000000000000
111000000000000
111000000000000
111000000000000
111000000000000
111000000000000
111000000000000
111000000000000
111000000000000
111000000000000
111000000000000
111000000000000
111000000000000
111000000000000
111000000000000
111000000000000
111000000000000
111000000000000
111000000000000
111000000000000
111000000000000
111000000000000
111000000000000
111000000000000
111000000000000
111000000000000
111000000000000
111000000000000
111000000000000
111000000000000
111000000000000
111000000000000
111000000000000
111000000000000
111000000000000
111000000000000
111000000000000
111000000000000
111000000000000
111000000000000
111000000000000
111000000000000
111000000000000
111000000000000
111000000000000
111000000000000
111000000000000
111000000000000
111000000000000
111000000000000
111000000000000
111000000000000
111000000000000
111000000000000
111000000000000
111000000000000
111000000000000
111000000000000
111000000000000
111000000000000
111000000000000
111000000000000
111000000000000
111000000000000
111000000000000
111000000000000
111000000000000
111000000000000
111000000000000
111000000000000
111000000000000
111000000000000
111000000000000
111000000000000
111000000000000
111000000000000
111000000000000
111000000000000
111000000000000
111000000000000
111000000000000
111000000000000
111000000000000
111000000000000
111000000000000
111000000000000
111000000000000
111000000000000
111000000000000
111000000000000
111000000000000
111000000000000
111000000000000
111000000000000
111000000000000
111000000000000
111000000000000
111000000000000
111000000000000
111000000000000
111000000000000
111000000000000
111000000000000
111000000000000
111000000000000
111000000000000
111000000000000
111000000000000
111000000000000
111000000000000
111000000000000
111000000000000
111000000000000
111000000000000
111000000000000
111000000000000
111000000000000
111000000000000
111000000000000
111000000000000
111000000000000
111000000000000
111000000000000
111000000000000
111000000000000
111000000000000
111000000000000
111000000000000
111000000000000
111000000000000
111000000000000
111000000000000
111000000000000
111000000000000
111000000000000
111000000000000
111000000000000
111000000000000
111000000000000
111000000000000
111000000000000
111000000000000
111000000000000
111000000000000
111000000000000
111000000000000
111000000000000
111000000000000
111000000000000
111000000000000
111000000000000
111000000000000
111000000000000
111000000000000
111000000000000
111000000000000
111000000000000
111000000000000
111000000000000
111000000000000
111000000000000
111000000000000
111000000000000
111000000000000
111000000000000
111000000000000
111000000000000
111000000000000
111000000000000
111000000000000
111000000000000
111000000000000
111000000000000
111000000000000
111000000000000
111000000000000
111000000000000
111000000000000
111000000000000
111000000000000
111000000000000
111000000000000
111000000000000
111000000000000
111000000000000
111000000000000
111000000000000
111000000000000
111000000000000
111000000000000
111000000000000
111000000000000
111000000000000
111000000000000
111000000000000
111000000000000
111000000000000
111000000000000
111000000000000
111000000000000
111000000000000
111000000000000
111000000000000
111000000000000
111000000000000
111000000000000
111000000000000
111000000000000
111000000000000
111000000000000
111000000000000
111000000000000
111000000000000
111000000000000
111000000000000
111000000000000
111000000000000
111000000000000
111000000000000
111000000000000
111000000000000
111000000000000
111000000000000
111000000000000
111000000000000
111000000000000
111000000000000
111000000000000
111000000000000
111000000000000
111000000000000
111000000000000
111000000000000
111000000000000
111000000000000
111000000000000
111000000000000
111000000000000
111000000000000
111000000000000
111000000000000
111000000000000
111000000000000
111000000000000
111000000000000
111000000000000
111000000000000
111000000000000
111000000000000
111000000000000
111000000000000
111000000000000
111000000000000
111000000000000
111000000000000
111000000000000
111000000000000
111000000000000
111000000000000
111000000000000
111000000000000
111000000000000
111000000000000
111000000000000
111000000000000
111000000000000
111000000000000
111000000000000
111000000000000
111000000000000
111000000000000
111000000000000
111000000000000
111000000000000
111000000000000
111000000000000
111000000000000
111000000000000
111000000000000
111000000000000
111000000000000
111000000000000
111000000000000
111000000000000
111000000000000
111000000000000
111000000000000
111000000000000
111000000000000
111000000000000
111000000000000
111000000000000
111000000000000
111000000000000
111000000000000
111000000000000
111000000000000
111000000000000
111000000000000
111000000000000
111000000000000
111000000000000
111000000000000
111000000000000
111000000000000
111000000000000
111000000000000
111000000000000
111000000000000
111000000000000
111000000000000
111000000000000
111000000000000
111000000000000
111000000000000
111000000000000
111000000000000
111000000000000
111000000000000
111000000000000
111000000000000
111000000000000
111000000000000
111000000000000
111000000000000
111000000000000
111000000000000
111000000000000
111000000000000
111000000000000
111000000000000
111000000000000
111000000000000
111000000000000
111000000000000
111000000000000
111000000000000
111000000000000
111000000000000
111000000000000
111000000000000
111000000000000
111000000000000
111000000000000
111000000000000
111000000000000
111000000000000
111000000000000
111000000000000
111000000000000
111000000000000
111000000000000
111000000000000
111000000000000
111000000000000
111000000000000
111000000000000
111000000000000
111000000000000
111000000000000
111000000000000
111000000000000
111000000000000
111000000000000
111000000000000
111000000000000
111000000000000
111000000000000
111000000000000
111000000000000
111000000000000
111000000000000
111000000000000
111000000000000
111000000000000
111000000000000
111000000000000
111000000000000
111000000000000
111000000000000
111000000000000
111000000000000
111000000000000
111000000000000
111000000000000
111000000000000
111000000000000
111000000000000
111000000000000
111000000000000
111000000000000
111000000000000
111000000000000
111000000000000
111000000000000
111000000000000
111000000000000
111000000000000
111000000000000
111000000000000
111000000000000
111000000000000
111000000000000
111000000000000
111000000000000
111000000000000
111000000000000
111000000000000
111000000000000
111000000000000
111000000000000
111000000000000
111000000000000
111000000000000
111000000000000
111000000000000
111000000000000
111000000000000
111000000000000
111000000000000
111000000000000
111000000000000
111000000000000
111000000000000
111000000000000
111000000000000
111000000000000
111000000000000
111000000000000
111000000000000
111000000000000
111000000000000
111000000000000
111000000000000
111000000000000
111000000000000
111000000000000
111000000000000
111000000000000
111000000000000
111000000000000
111000000000000
111000000000000
111000000000000
111000000000000
111000000000000
111000000000000
111000000000000
111000000000000
111000000000000
111000000000000
111000000000000
111000000000000
111000000000000
111000000000000
111000000000000
111000000000000
111000000000000
111000000000000
111000000000000
111000000000000
111000000000000
111000000000000
111000000000000
111000000000000
111000000000000
111000000000000
111000000000000
111000000000000
111000000000000
111000000000000
111000000000000
111000000000000
111000000000000
111000000000000
111000000000000
111000000000000
111000000000000
111000000000000
111000000000000
111000000000000
111000000000000
111000000000000
111000000000000
111000000000000
111000000000000
111000000000000
111000000000000
111000000000000
111000000000000
111000000000000
111000000000000
111000000000000
111000000000000
111000000000000
111000000000000
111000000000000
111000000000000
111000000000000
111000000000000
111000000000000
111000000000000
111000000000000
111000000000000
111000000000000
111000000000000
111000000000000
111000000000000
111000000000000
111000000000000
111000000000000
111000000000000
111000000000000
111000000000000
111000000000000
111000000000000
111000000000000
111000000000000
111000000000000
111000000000000
111000000000000
111000000000000
111000000000000
111000000000000
111000000000000
111000000000000
111000000000000
111000000000000
111000000000000
111000000000000
111000000000000
111000000000000
111000000000000
111000000000000
111000000000000
111000000000000
111000000000000
111000000000000
111000000000000
111000000000000
111000000000000
111000000000000
111000000000000
111000000000000
111000000000000
111000000000000
111000000000000
111000000000000
111000000000000
111000000000000
111000000000000
111000000000000
111000000000000
111000000000000
111000000000000
111000000000000
111000000000000
111000000000000
111000000000000
111000000000000
111000000000000
111000000000000
111000000000000
111000000000000
111000000000000
111000000000000
111000000000000
111000000000000
111000000000000
111000000000000
111000000000000
111000000000000
111000000000000
111000000000000
111000000000000
111000000000000
111000000000000
111000000000000
111000000000000
111000000000000
111000000000000
111000000000000
111000000000000
111000000000000
111000000000000
111000000000000
111000000000000
111000000000000
111000000000000
111000000000000
111000000000000
111000000000000
111000000000000
111000000000000
111000000000000
111000000000000
111000000000000
111000000000000
111000000000000
111000000000000
111000000000000
111000000000000
111000000000000
111000000000000
111000000000000
111000000000000
111000000000000
111000000000000
111000000000000
111000000000000
111000000000000
111000000000000
111000000000000
111000000000000
111000000000000
111000000000000
111000000000000
111000000000000
111000000000000
111000000000000
111000000000000
111000000000000
111000000000000
111000000000000
111000000000000
111000000000000
111000000000000
111000000000000
111000000000000
111000000000000
111000000000000
111000000000000
111000000000000
111000000000000
111000000000000
111000000000000
111000000000000
111000000000000
111000000000000
111000000000000
111000000000000
111000000000000
111000000000000
111000000000000
111000000000000
111000000000000
111000000000000
111000000000000
111000000000000
111000000000000
111000000000000
111000000000000
111000000000000
111000000000000
111000000000000
111000000000000
111000000000000
111000000000000
111000000000000
111000000000000
111000000000000
111000000000000
111000000000000
111000000000000
111000000000000
111000000000000
111000000000000
111000000000000
111000000000000
111000000000000
111000000000000
111000000000000
111000000000000
111000000000000
111000000000000
111000000000000
111000000000000
111000000000000
111000000000000
111000000000000
111000000000000
111000000000000
111000000000000
111000000000000
111000000000000
111000000000000
111000000000000
111000000000000
111000000000000
111000000000000
111000000000000
111000000000000
111000000000000
111000000000000
111000000000000
111000000000000
111000000000000
111000000000000
111000000000000
111000000000000
111000000000000
111000000000000
111000000000000
111000000000000
111000000000000
111000000000000
111000000000000
111000000000000
111000000000000
111000000000000
111000000000000
111000000000000
111000000000000
111000000000000
111000000000000
111000000000000
111000000000000
111000000000000
111000000000000
111000000000000
111000000000000
111000000000000
111000000000000
111000000000000
111000000000000
111000000000000
111000000000000
111000000000000
111000000000000
111000000000000
111000000000000
111000000000000
111000000000000
111000000000000
111000000000000
111000000000000
111000000000000
111000000000000
111000000000000
111000000000000
111000000000000
111000000000000
111000000000000
111000000000000
111000000000000
111000000000000
111000000000000
111000000000000
111000000000000
111000000000000
111000000000000
111000000000000
111000000000000
111000000000000
111000000000000
111000000000000
111000000000000
111000000000000
111000000000000
111000000000000
111000000000000
111000000000000
111000000000000
111000000000000
111000000000000
111000000000000
111000000000000
111000000000000
111000000000000
111000000000000
111000000000000
111000000000000
111000000000000
111000000000000
111000000000000
111000000000000
111000000000000
111000000000000
111000000000000
111000000000000
111000000000000
111000000000000
111000000000000
111000000000000
111000000000000
111000000000000
111000000000000
111000000000000
111000000000000
111000000000000
111000000000000
111000000000000
111000000000000
111000000000000
111000000000000
111000000000000
111000000000000
111000000000000
111000000000000
111000000000000
111000000000000
111000000000000
111000000000000
111000000000000
111000000000000
111000000000000
111000000000000
111000000000000
111000000000000
111000000000000
111000000000000
111000000000000
111000000000000
111000000000000
111000000000000
111000000000000
111000000000000
111000000000000
111000000000000
111000000000000
111000000000000
111000000000000
111000000000000
111000000000000
111000000000000
111000000000000
111000000000000
111000000000000
111000000000000
111000000000000
111000000000000
111000000000000
111000000000000
111000000000000
111000000000000
111000000000000
111000000000000
111000000000000
111000000000000
111000000000000
111000000000000
111000000000000
111000000000000
111000000000000
111000000000000
111000000000000
111000000000000
111000000000000
111000000000000
111000000000000
111000000000000
111000000000000
111000000000000
111000000000000
111000000000000
111000000000000
111000000000000
111000000000000
111000000000000
111000000000000
111000000000000
111000000000000
111000000000000
111000000000000
111000000000000
111000000000000
111000000000000
111000000000000
111000000000000
111000000000000
111000000000000
111000000000000
111000000000000
111000000000000
111000000000000
111000000000000
111000000000000
111000000000000
111000000000000
111000000000000
111000000000000
111000000000000
111000000000000
111000000000000
111000000000000
111000000000000
111000000000000
111000000000000
111000000000000
111000000000000
111000000000000
111000000000000
111000000000000
111000000000000
111000000000000
111000000000000
111000000000000
111000000000000
111000000000000
111000000000000
111000000000000
111000000000000
111000000000000
111000000000000
111000000000000
111000000000000
111000000000000
111000000000000
111000000000000
111000000000000
111000000000000
111000000000000
111000000000000
111000000000000
111000000000000
111000000000000
111000000000000
111000000000000
111000000000000
111000000000000
111000000000000
111000000000000
111000000000000
111000000000000
111000000000000
111000000000000
111000000000000
111000000000000
111000000000000
111000000000000
111000000000000
111000000000000
111000000000000
111000000000000
111000000000000
111000000000000
111000000000000
111000000000000
111000000000000
111000000000000
111000000000000
111000000000000
111000000000000
111000000000000
111000000000000
111000000000000
111000000000000
111000000000000
111000000000000
111000000000000
111000000000000
111000000000000
111000000000000
111000000000000
111000000000000
111000000000000
111000000000000
111000000000000
111000000000000
111000000000000
111000000000000
111000000000000
111000000000000
111000000000000
111000000000000
111000000000000
111000000000000
111000000000000
111000000000000
111000000000000
111000000000000
111000000000000
111000000000000
111000000000000
111000000000000
111000000000000
111000000000000
111000000000000
111000000000000
111000000000000
111000000000000
111000000000000
111000000000000
111000000000000
111000000000000
111000000000000
111000000000000
111000000000000
111000000000000
111000000000000
111000000000000
111000000000000
111000000000000
111000000000000
111000000000000
111000000000000
111000000000000
111000000000000
111000000000000
111000000000000
111000000000000
111000000000000
111000000000000
111000000000000
111000000000000
111000000000000
111000000000000
111000000000000
111000000000000
111000000000000
111000000000000
111000000000000
111000000000000
111000000000000
111000000000000
111000000000000
111000000000000
111000000000000
111000000000000
111000000000000
111000000000000
111000000000000
111000000000000
111000000000000
111000000000000
111000000000000
111000000000000
111000000000000
111000000000000
111000000000000
111000000000000
111000000000000
111000000000000
111000000000000
111000000000000
111000000000000
111000000000000
111000000000000
111000000000000
111000000000000
111000000000000
111000000000000
111000000000000
111000000000000
111000000000000
111000000000000
111000000000000
111000000000000
111000000000000
111000000000000
111000000000000
111000000000000
111000000000000
111000000000000
111000000000000
111000000000000
111000000000000
111000000000000
111000000000000
111000000000000
111000000000000
111000000000000
111000000000000
111000000000000
111000000000000
111000000000000
111000000000000
111000000000000
111000000000000
111000000000000
111000000000000
111000000000000
111000000000000
111000000000000
111000000000000
111000000000000
111000000000000
111000000000000
111000000000000
111000000000000
111000000000000
111000000000000
111000000000000
111000000000000
111000000000000
111000000000000
111000000000000
111000000000000
111000000000000
111000000000000
111000000000000
111000000000000
111000000000000
111000000000000
111000000000000
111000000000000
111000000000000
111000000000000
111000000000000
111000000000000
111000000000000
111000000000000
111000000000000
111000000000000
111000000000000
111000000000000
111000000000000
111000000000000
111000000000000
111000000000000
111000000000000
111000000000000
111000000000000
111000000000000
111000000000000
111000000000000
111000000000000
111000000000000
111000000000000
111000000000000
111000000000000
111000000000000
111000000000000
111000000000000
111000000000000
111000000000000
111000000000000
111000000000000
111000000000000
111000000000000
111000000000000
111000000000000
111000000000000
111000000000000
111000000000000
111000000000000
111000000000000
111000000000000
111000000000000
111000000000000
111000000000000
111000000000000
111000000000000
111000000000000
111000000000000
111000000000000
111000000000000
111000000000000
111000000000000
111000000000000
111000000000000
111000000000000
111000000000000
111000000000000
111000000000000
111000000000000
111000000000000
111000000000000
111000000000000
111000000000000
111000000000000
111000000000000
111000000000000
111000000000000
111000000000000
111000000000000
111000000000000
111000000000000
111000000000000
111000000000000
111000000000000
111000000000000
111000000000000
111000000000000
111000000000000
111000000000000
111000000000000
111000000000000
111000000000000
111000000000000
111000000000000
111000000000000
111000000000000
111000000000000
111000000000000
111000000000000
111000000000000
111000000000000
111000000000000
111000000000000
111000000000000
111000000000000
111000000000000
111000000000000
111000000000000
111000000000000
111000000000000
111000000000000
111000000000000
111000000000000
111000000000000
111000000000000
111000000000000
111000000000000
111000000000000
111000000000000
111000000000000
111000000000000
111000000000000
111000000000000
111000000000000
111000000000000
111000000000000
111000000000000
111000000000000
111000000000000
111000000000000
111000000000000
111000000000000
111000000000000
111000000000000
111000000000000
111000000000000
111000000000000
111000000000000
111000000000000
111000000000000
111000000000000
111000000000000
111000000000000
111000000000000
111000000000000
111000000000000
111000000000000
111000000000000
111000000000000
111000000000000
111000000000000
111000000000000
111000000000000
111000000000000
111000000000000
111000000000000
111000000000000
111000000000000
111000000000000
111000000000000
111000000000000
111000000000000
111000000000000
111000000000000
111000000000000
111000000000000
111000000000000
111000000000000
111000000000000
111000000000000
111000000000000
111000000000000
111000000000000
111000000000000
111000000000000
111000000000000
111000000000000
111000000000000
111000000000000
111000000000000
111000000000000
111000000000000
111000000000000
111000000000000
111000000000000
111000000000000
111000000000000
111000000000000
111000000000000
111000000000000
111000000000000
111000000000000
111000000000000
111000000000000
111000000000000
111000000000000
111000000000000
111000000000000
111000000000000
111000000000000
111000000000000
111000000000000
111000000000000
111000000000000
111000000000000
111000000000000
111000000000000
111000000000000
111000000000000
111000000000000
111000000000000
111000000000000
111000000000000
111000000000000
111000000000000
111000000000000
111000000000000
111000000000000
111000000000000
111000000000000
111000000000000
111000000000000
111000000000000
111000000000000
111000000000000
111000000000000
111000000000000
111000000000000
111000000000000
111000000000000
111000000000000
111000000000000
111000000000000
111000000000000
111000000000000
111000000000000
111000000000000
111000000000000
111000000000000
111000000000000
111000000000000
111000000000000
111000000000000
111000000000000
111000000000000
111000000000000
111000000000000
111000000000000
111000000000000
111000000000000
111000000000000
111000000000000
111000000000000
111000000000000
111000000000000
111000000000000
111000000000000
111000000000000
111000000000000
111000000000000
111000000000000
111000000000000
111000000000000
111000000000000
111000000000000
111000000000000
111000000000000
111000000000000
111000000000000
111000000000000
111000000000000
111000000000000
111000000000000
111000000000000
111000000000000
111000000000000
111000000000000
111000000000000
111000000000000
111000000000000
111000000000000
111000000000000
111000000000000
111000000000000
111000000000000
111000000000000
111000000000000
111000000000000
111000000000000
111000000000000
111000000000000
111000000000000
111000000000000
111000000000000
111000000000000
111000000000000
111000000000000
111000000000000
111000000000000
111000000000000
111000000000000
111000000000000
111000000000000
111000000000000
111000000000000
111000000000000
111000000000000
111000000000000
111000000000000
111000000000000
111000000000000
111000000000000
111000000000000
111000000000000
111000000000000
111000000000000
111000000000000
111000000000000
111000000000000
111000000000000
111000000000000
111000000000000
111000000000000
111000000000000
111000000000000
111000000000000
111000000000000
111000000000000
111000000000000
111000000000000
111000000000000
111000000000000
111000000000000
111000000000000
111000000000000
111000000000000
111000000000000
111000000000000
111000000000000
111000000000000
111000000000000
111000000000000
111000000000000
111000000000000
111000000000000
111000000000000
111000000000000
111000000000000
111000000000000
111000000000000
111000000000000
111000000000000
111000000000000
111000000000000
111000000000000
111000000000000
111000000000000
111000000000000
111000000000000
111000000000000
111000000000000
111000000000000
111000000000000
111000000000000
111000000000000
111000000000000
111000000000000
111000000000000
111000000000000
111000000000000
111000000000000
111000000000000
111000000000000
111000000000000
111000000000000
111000000000000
111000000000000
111000000000000
111000000000000
111000000000000
111000000000000
111000000000000
111000000000000
111000000000000
111000000000000
111000000000000
111000000000000
111000000000000
111000000000000
111000000000000
111000000000000
111000000000000
111000000000000
111000000000000
111000000000000
111000000000000
111000000000000
111000000000000
111000000000000
111000000000000
111000000000000
111000000000000
111000000000000
111000000000000
111000000000000
111000000000000
111000000000000
111000000000000
111000000000000
111000000000000
111000000000000
111000000000000
111000000000000
111000000000000
111000000000000
111000000000000
111000000000000
111000000000000
111000000000000
111000000000000
111000000000000
111000000000000
111000000000000
111000000000000
111000000000000
111000000000000
111000000000000
111000000000000
111000000000000
111000000000000
111000000000000
111000000000000
111000000000000
111000000000000
111000000000000
111000000000000
111000000000000
111000000000000
111000000000000
111000000000000
111000000000000
111000000000000
111000000000000
111000000000000
111000000000000
111000000000000
111000000000000
111000000000000
111000000000000
111000000000000
111000000000000
111000000000000
111000000000000
111000000000000
111000000000000
111000000000000
111000000000000
111000000000000
111000000000000
111000000000000
111000000000000
111000000000000
111000000000000
111000000000000
111000000000000
111000000000000
111000000000000
111000000000000
111000000000000
111000000000000
111000000000000
111000000000000
111000000000000
111000000000000
111000000000000
111000000000000
111000000000000
111000000000000
111000000000000
111000000000000
111000000000000
111000000000000
111000000000000
111000000000000
111000000000000
111000000000000
111000000000000
111000000000000
111000000000000
111000000000000
111000000000000
111000000000000
111000000000000
111000000000000
111000000000000
111000000000000
111000000000000
111000000000000
111000000000000
111000000000000
111000000000000
111000000000000
111000000000000
111000000000000
111000000000000
111000000000000
111000000000000
111000000000000
111000000000000
111000000000000
111000000000000
111000000000000
111000000000000
111000000000000
111000000000000
111000000000000
111000000000000
111000000000000
111000000000000
111000000000000
111000000000000
111000000000000
111000000000000
111000000000000
111000000000000
111000000000000
111000000000000
111000000000000
111000000000000
111000000000000
111000000000000
111000000000000
111000000000000
111000000000000
111000000000000
111000000000000
111000000000000
111000000000000
111000000000000
111000000000000
111000000000000
111000000000000
111000000000000
111000000000000
111000000000000
111000000000000
111000000000000
111000000000000
111000000000000
111000000000000
111000000000000
111000000000000
111000000000000
111000000000000
111000000000000
111000000000000
111000000000000
111000000000000
111000000000000
111000000000000
111000000000000
111000000000000
111000000000000
111000000000000
111000000000000
111000000000000
111000000000000
111000000000000
111000000000000
111000000000000
111000000000000
111000000000000
111000000000000
111000000000000
111000000000000
111000000000000
111000000000000
111000000000000
111000000000000
111000000000000
111000000000000
111000000000000
111000000000000
111000000000000
111000000000000
111000000000000
111000000000000
111000000000000
111000000000000
111000000000000
111000000000000
111000000000000
111000000000000
111000000000000
111000000000000
111000000000000
111000000000000
111000000000000
111000000000000
111000000000000
111000000000000
111000000000000
111000000000000
111000000000000
111000000000000
111000000000000
111000000000000
111000000000000
111000000000000
111000000000000
111000000000000
111000000000000
111000000000000
111000000000000
111000000000000
111000000000000
111000000000000
111000000000000
111000000000000
111000000000000
111000000000000
111000000000000
111000000000000
111000000000000
111000000000000
111000000000000
111000000000000
111000000000000
111000000000000
111000000000000
111000000000000
111000000000000
111000000000000
111000000000000
111000000000000
111000000000000
111000000000000
111000000000000
111000000000000
111000000000000
111000000000000
111000000000000
111000000000000
111000000000000
111000000000000
111000000000000
111000000000000
111000000000000
111000000000000
111000000000000
111000000000000
111000000000000
111000000000000
111000000000000
111000000000000
111000000000000
111000000000000
111000000000000
111000000000000
111000000000000
111000000000000
111000000000000
111000000000000
111000000000000
111000000000000
111000000000000
111000000000000
111000000000000
111000000000000
111000000000000
111000000000000
111000000000000
111000000000000
111000000000000
111000000000000
111000000000000
111000000000000
111000000000000
111000000000000
111000000000000
111000000000000
111000000000000
111000000000000
111000000000000
111000000000000
111000000000000
111000000000000
111000000000000
111000000000000
111000000000000
111000000000000
111000000000000
111000000000000
111000000000000
111000000000000
111000000000000
111000000000000
111000000000000
111000000000000
111000000000000
111000000000000
111000000000000
111000000000000
111000000000000
111000000000000
111000000000000
111000000000000
111000000000000
111000000000000
111000000000000
111000000000000
111000000000000
111000000000000
111000000000000
111000000000000
111000000000000
111000000000000
111000000000000
111000000000000
111000000000000
111000000000000
111000000000000
111000000000000
111000000000000
111000000000000
111000000000000
111000000000000
111000000000000
111000000000000
111000000000000
111000000000000
111000000000000
111000000000000
111000000000000
111000000000000
111000000000000
111000000000000
111000000000000
111000000000000
111000000000000
111000000000000
111000000000000
111000000000000
111000000000000
111000000000000
111000000000000
111000000000000
111000000000000
111000000000000
111000000000000
111000000000000
111000000000000
111000000000000
111000000000000
111000000000000
111000000000000
111000000000000
111000000000000
111000000000000
111000000000000
111000000000000
111000000000000
111000000000000
111000000000000
111000000000000
111000000000000
111000000000000
111000000000000
111000000000000
111000000000000
111000000000000
111000000000000
111000000000000
111000000000000
111000000000000
111000000000000
111000000000000
111000000000000
111000000000000
111000000000000
111000000000000
111000000000000
111000000000000
111000000000000
111000000000000
111000000000000
111000000000000
111000000000000
111000000000000
111000000000000
111000000000000
111000000000000
111000000000000
111000000000000
111000000000000
111000000000000
111000000000000
111000000000000
111000000000000
111000000000000
111000000000000
111000000000000
111000000000000
111000000000000
111000000000000
111000000000000
111000000000000
111000000000000
111000000000000
111000000000000
111000000000000
111000000000000
111000000000000
111000000000000
111000000000000
111000000000000
111000000000000
111000000000000
111000000000000
111000000000000
111000000000000
